<pad>	0
<unk>	0
<s>	0
</s>	0
।	0
॥	0
e	-2.19911
\	-2.74374
a	-2.77455
t	-3.04583
l	-3.04583
▁	-3.1388
f	-3.26071
ac	-3.73359
da	-3.73704
.	-3.73889
s	-3.73897
:	-3.73897
n	-3.73897
_	-3.73897
g	-3.73897
i	-3.73897
m	-3.73897
p	-3.73897
r	-3.73897
|	-3.73898
ed	-3.76214
d	-4.41561
b	-4.49062
c	-4.49321
को	-5.54877
4	-5.60602
8	-5.60786
5	-5.613
1	-5.61818
9	-5.62885
6	-5.63338
3	-5.6394
2	-5.65553
0	-5.66539
7	-5.69828
मा	-5.72121
का	-6.26038
र	-6.58834
ले	-6.61505
न	-6.75016
क	-6.92261
▁छ	-6.94683
ी	-6.99606
लाई	-7.00425
ल	-7.0079
▁र	-7.08355
म	-7.19887
▁हो	-7.27018
हरू	-7.30037
\5	-7.31557
\6	-7.31711
यो	-7.33515
\7	-7.35959
\4	-7.37508
\9	-7.39287
स	-7.39665
\1	-7.41316
bc	-7.41593
\3	-7.4229
bb	-7.4309
\8	-7.44182
\2	-7.44983
▁पनि	-7.4554
bd	-7.52527
ट	-7.53543
db	-7.53625
cc	-7.53933
dc	-7.53949
ता	-7.57046
बाट	-7.57261
cb	-7.57493
त	-7.60032
dd	-7.60404
cd	-7.61994
ा	-7.62984
ला	-7.65949
ना	-7.67787
95	-7.68315
प	-7.69943
55	-7.71556
61	-7.72612
54	-7.73094
य	-7.74255
25	-7.75653
ग	-7.7582
45	-7.76798
68	-7.77224
84	-7.77767
94	-7.77849
े	-7.7815
59	-7.7841
33	-7.79292
69	-7.79907
56	-7.80034
52	-7.8029
99	-7.80928
82	-7.80937
58	-7.81082
व	-7.81891
42	-7.82073
93	-7.82226
64	-7.82419
24	-7.84261
51	-7.84709
्	-7.84741
▁एक	-7.86117
66	-7.86909
75	-7.87052
रा	-7.88276
49	-7.8842
27	-7.88814
न्	-7.88966
48	-7.89064
71	-7.8924
38	-7.90458
44	-7.91105
ै	-7.91355
ि	-7.91805
72	-7.91933
12	-7.9204
ँ	-7.92345
▁अ	-7.92777
10	-7.93121
57	-7.93183
13	-7.93491
ह	-7.94024
78	-7.94426
86	-7.94819
77	-7.95345
34	-7.95651
79	-7.95902
62	-7.96245
43	-7.96771
47	-7.97098
91	-7.97106
ज	-7.9718
08	-7.97355
26	-7.98042
98	-7.98827
23	-7.99197
74	-7.99417
76	-7.99702
28	-7.99793
29	-8.00431
▁थियो	-8.0065
हरूको	-8.01645
21	-8.03262
14	-8.03453
यस	-8.0367
39	-8.03677
96	-8.04039
83	-8.04211
32	-8.04226
89	-8.04297
11	-8.04559
67	-8.04581
02	-8.04649
19	-8.05662
65	-8.06032
87	-8.06187
▁हुन्छ	-8.06335
▁छन्	-8.07744
03	-8.07761
ड	-8.07946
र्	-8.08182
37	-8.08229
15	-8.08435
41	-8.09929
द	-8.10539
36	-8.10824
88	-8.10837
00	-8.11021
05	-8.11273
06	-8.11477
16	-8.11891
31	-8.11904
81	-8.12007
श	-8.12221
स्	-8.13632
17	-8.14247
73	-8.14311
09	-8.15161
63	-8.16478
ु	-8.17061
35	-8.1773
04	-8.18261
07	-8.18425
92	-8.18439
46	-8.18449
01	-8.18794
97	-8.19572
▁भएको	-8.20492
85	-8.21544
▁लागि	-8.22522
22	-8.23003
80	-8.23508
ध	-8.23573
30	-8.24778
▁आ	-8.25239
18	-8.25783
53	-8.26438
▁स	-8.2651
90	-8.26953
60	-8.28123
एक	-8.29348
70	-8.30143
अ	-8.30261
उ	-8.30384
▁थिए	-8.30809
20	-8.3298
च	-8.35888
लि	-8.3629
ण	-8.37301
सम्म	-8.37603
िक	-8.38613
वा	-8.39402
40	-8.40542
50	-8.41124
ो	-8.4153
री	-8.42157
ाइ	-8.42304
या	-8.44378
▁ब	-8.45369
▁तथा	-8.45969
हरूमा	-8.46286
आ	-8.46343
्ने	-8.46479
▁गर्न	-8.47027
ली	-8.47036
▁मा	-8.47768
्न	-8.48699
देखि	-8.50493
ब	-8.50878
छ	-8.50901
ने	-8.51332
ित	-8.52826
ेर	-8.53724
▁प	-8.54976
ख	-8.55442
▁म	-8.5574
नि	-8.55767
पनि	-8.56177
▁नै	-8.56944
दा	-8.57073
सा	-8.57582
▁गरे	-8.58946
रो	-8.60257
पछि	-8.61115
वि	-8.6125
▁यो	-8.62568
्य	-8.63042
म्	-8.6306
डा	-8.63167
जा	-8.65636
ती	-8.66398
इ	-8.67688
▁गर्ने	-8.67908
▁रूपमा	-8.68737
द्वारा	-8.69149
की	-8.70413
▁भने	-8.70651
क्ष	-8.71877
सँग	-8.71925
भ	-8.72206
▁हुन्	-8.72422
४	-8.72437
िएको	-8.73245
ङ्ग	-8.73501
ौ	-8.74728
▁न	-8.75252
कार	-8.76212
ष	-8.76234
ति	-8.77283
खा	-8.77363
रे	-8.77567
६	-8.78078
▁भ	-8.78882
हि	-8.79029
▁वा	-8.79451
▁लेख	-8.79783
सी	-8.79917
▁रहेको	-8.80222
▁प्र	-8.813
पा	-8.81875
ठ	-8.82576
▁एउटा	-8.83263
यसको	-8.85065
▁दिन	-8.86195
हरूले	-8.8645
▁नाम	-8.86855
थ	-8.87745
दि	-8.88044
हरूलाई	-8.88155
▁आफ्नो	-8.88181
ू	-8.8827
बा	-8.88704
शा	-8.89959
नी	-8.90719
तर	-8.90853
▁नेपालको	-8.91318
के	-8.92251
ीय	-8.92285
▁ग	-8.92611
▁वि	-8.93306
९	-8.93736
▁क	-8.93976
▁कि	-8.94117
▁नि	-8.94337
ङ	-8.94877
▁१९	-8.95298
गो	-8.9632
▁भयो	-8.96346
मु	-8.96978
▁वर्ष	-8.97046
▁त	-8.97247
▁नेपाली	-8.97364
सि	-8.97379
लो	-8.97577
भन्दा	-8.97726
मि	-8.98112
ौँ	-8.98243
७	-8.98725
▁हुने	-8.99975
्या	-9.00287
झ	-9.00541
त्	-9.02551
▁धेरै	-9.03001
▁यस	-9.03264
ाउने	-9.03325
पुर	-9.03451
५	-9.04051
से	-9.04153
▁उ	-9.04789
हा	-9.05281
जी	-9.05298
२०	-9.06139
ढ	-9.06204
उनले	-9.07226
कै	-9.07381
भा	-9.07861
कु	-9.07918
▁जिल्लामा	-9.08494
▁गरेको	-9.08805
रूप	-9.09204
था	-9.09423
आफ्नो	-9.09595
प्र	-9.09948
जन	-9.10326
भएको	-9.10393
३	-9.10452
ए	-9.11004
▁ज	-9.1156
▁२०	-9.11717
▁भए	-9.12469
धेरै	-9.12792
ं	-9.13081
सु	-9.13317
▁क्षेत्र	-9.14239
ेको	-9.14429
टा	-9.14672
गा	-9.15118
ाउन	-9.15412
घ	-9.15741
ग्	-9.15949
▁सा	-9.16643
कि	-9.16854
उनी	-9.17848
प्	-9.18278
▁च	-9.1833
फ	-9.19121
ई	-9.19172
▁सि	-9.19487
▁भनिन्छ	-9.20359
रु	-9.20525
▁कारण	-9.20775
▁जिल्ला	-9.20818
▁विकास	-9.21134
मान	-9.21218
सन्	-9.22154
टि	-9.22383
टो	-9.22611
मो	-9.22718
जु	-9.22905
तथा	-9.23963
लागि	-9.24611
जि	-9.25147
यी	-9.25189
▁द	-9.25488
एउटा	-9.26001
▁ह	-9.26348
रूपमा	-9.26375
नाम	-9.26565
पि	-9.27077
पे	-9.27771
सो	-9.27909
▁कुनै	-9.28007
यसलाई	-9.28988
▁जिल्लाको	-9.29058
िन्छ	-9.29738
लेख	-9.3024
स्ट	-9.30747
मे	-9.31278
▁गरिन्छ	-9.31859
▁मात्र	-9.31869
्छ	-9.32148
कुनै	-9.32199
टे	-9.32828
१	-9.33236
यहाँ	-9.33607
काल	-9.33948
▁सबै	-9.34832
▁काम	-9.35023
▁नेपाल	-9.3511
भित्र	-9.35328
चा	-9.35629
चि	-9.35706
८	-9.35862
▁प्रयोग	-9.35914
▁गरेका	-9.36479
हरूका	-9.36541
दिन	-9.37128
दु	-9.37174
गु	-9.37258
▁छैन	-9.37259
खु	-9.37309
तु	-9.37469
▁कुरा	-9.37816
ाई	-9.37947
उनको	-9.38347
▁सु	-9.38999
▁गरी	-9.39378
केही	-9.39403
देश	-9.39596
्नु	-9.39784
अनु	-9.39969
राम	-9.4007
टी	-9.40084
हो	-9.40164
▁जन्म	-9.40532
▁गरिएको	-9.40648
गर्न	-9.40662
▁केही	-9.41317
▁भएका	-9.41578
मध्ये	-9.41775
बो	-9.41786
पु	-9.42272
▁ख	-9.4255
द्	-9.42646
ही	-9.42658
भने	-9.42889
राख	-9.4326
▁पा	-9.43379
त्यस	-9.43764
वे	-9.43969
▁गाउँ	-9.44402
▁बा	-9.44505
▁राज्य	-9.44769
डे	-9.4521
▁दुई	-9.45327
बि	-9.46427
नेपाल	-9.4681
लु	-9.46871
वर	-9.46949
रहेको	-9.46991
भर	-9.47078
▁अनुसार	-9.47169
िन	-9.47455
्र	-9.4751
ाँ	-9.48661
▁समय	-9.48691
ष्ट	-9.48701
▁गाविस	-9.49026
▁मन्दिर	-9.49031
र्क	-9.49604
पो	-9.49936
ण्ड	-9.50051
त्र	-9.50058
▁भाषा	-9.50292
▁अन्य	-9.50715
नेपाली	-9.51155
ृ	-9.51348
मी	-9.51542
नै	-9.51559
१९	-9.51572
ेका	-9.51737
▁हुन	-9.523
▁बि	-9.53131
▁विभिन्न	-9.53359
एको	-9.53411
▁ए	-9.5369
पूर्ण	-9.54228
डी	-9.54523
ीको	-9.54957
▁पाइन्छ	-9.55142
▁कु	-9.55445
ब्	-9.55614
ओ	-9.56038
उनलाई	-9.56043
माथि	-9.56065
▁कार्य	-9.56287
▁गरि	-9.56364
▁महा	-9.5684
गत	-9.56841
ाएर	-9.5686
बन	-9.57365
▁आदि	-9.57369
मत	-9.57437
स्त	-9.57755
जे	-9.57909
यस्तो	-9.58385
सबै	-9.58686
▁के	-9.58881
्दै	-9.58976
▁स्थान	-9.59282
तो	-9.59531
▁नदी	-9.59547
यु	-9.59965
▁देखि	-9.59993
डि	-9.60379
▁दिए	-9.60665
▁गर्नु	-9.60738
▁देश	-9.6121
बु	-9.6152
▁अवस्थित	-9.61735
▁तर	-9.61811
पर	-9.61815
िने	-9.62357
▁परि	-9.62633
पी	-9.63071
त्यो	-9.63419
अधिकार	-9.63621
▁प्राप्त	-9.64063
उँ	-9.64162
वटा	-9.6422
▁हुन्छन्	-9.64309
राज	-9.64453
ग्रह	-9.64963
नु	-9.65055
शि	-9.6546
▁गर्दछ	-9.65569
सर	-9.65572
भाव	-9.65679
योग	-9.66389
भूमि	-9.67128
▁उनले	-9.67356
ियो	-9.67387
ठा	-9.67554
क्स	-9.67561
▁भन्ने	-9.67739
कल	-9.67807
रण	-9.67958
त्त	-9.68234
दो	-9.69139
डो	-9.69152
न्ड	-9.69341
फल	-9.69754
क्षेत्र	-9.69763
जो	-9.69852
श्री	-9.70259
सन	-9.70588
▁मिल	-9.70709
स्थल	-9.70877
२००	-9.71121
ङ्क	-9.71151
तिर	-9.71208
प्रकाश	-9.71285
कार्य	-9.71341
▁कम	-9.71344
फा	-9.71357
न्न	-9.71403
धन	-9.71478
युद्ध	-9.71553
नो	-9.71634
िएका	-9.72335
िया	-9.72424
▁जीवन	-9.7253
गर्ने	-9.72607
पत्र	-9.72997
दी	-9.73025
\23	-9.73138
नको	-9.73169
▁घर	-9.73296
गरी	-9.73446
▁गर	-9.7362
हाल	-9.73647
वार	-9.74406
▁मन	-9.74556
२	-9.74575
मन	-9.74578
न्त	-9.74766
▁हजार	-9.74773
न्द	-9.74804
▁उनको	-9.74992
इन्	-9.75037
्रा	-9.75042
▁मान	-9.75049
चार	-9.75529
जुन	-9.7554
▁इ	-9.75682
▁गर्दा	-9.75871
▁उनी	-9.76018
आज	-9.7613
▁जुन	-9.76143
सम	-9.7621
उनका	-9.76262
भि	-9.7633
मै	-9.764
विषय	-9.7646
क्र	-9.7685
देख	-9.76942
ड्	-9.77023
▁प्रति	-9.7749
▁गरेर	-9.77892
▁गर्दै	-9.78089
काम	-9.78205
्छन्	-9.78439
अर्को	-9.7849
हुन्छ	-9.79
हार	-9.79186
इतिहास	-9.79297
पूर्व	-9.79301
मध्य	-9.79306
रहन	-9.79365
\92	-9.79439
▁सन्	-9.79498
▁जन	-9.79574
▁मुख्य	-9.79589
▁भाग	-9.80087
▁पहिलो	-9.80094
कर	-9.80242
निर्	-9.80552
हे	-9.80552
\85	-9.80651
▁सकिन्छ	-9.80747
▁उप	-9.81064
▁बस	-9.81102
▁सक्छ	-9.8165
नमा	-9.81697
▁प्रमुख	-9.82074
\29	-9.82078
धा	-9.82788
िका	-9.82925
ते	-9.83128
ाले	-9.83463
कारण	-9.83657
▁नयाँ	-9.83674
फो	-9.83783
दल	-9.83885
्दा	-9.83913
व्य	-9.83974
चो	-9.84025
▁विशेष	-9.84298
कथा	-9.84304
गीत	-9.84467
\97	-9.84554
आन्दोलन	-9.84616
▁फ	-9.84842
मेरो	-9.84879
मन्त्री	-9.85291
हु	-9.85503
भए	-9.85605
\39	-9.85706
रू	-9.85747
बढ	-9.85832
कम	-9.85957
\60	-9.8603
िन्	-9.86063
▁चल	-9.86202
\87	-9.8637
बल	-9.86386
पाल	-9.86684
▁क्षेत्रमा	-9.86962
औ	-9.87385
\37	-9.87571
\22	-9.8778
त्यसपछि	-9.87782
▁गर्छ	-9.87945
टु	-9.88108
तिन	-9.88258
▁हुनु	-9.88351
गरि	-9.88356
कृति	-9.88398
▁जनसङ्ख्या	-9.88475
ईपू	-9.88641
आइ	-9.89054
प्रति	-9.89112
▁पत्रिका	-9.89276
सम्बन्ध	-9.89449
▁पर्ने	-9.89536
भाषा	-9.89714
ीमा	-9.89748
बर	-9.89791
▁मानिन्छ	-9.90246
▁राजा	-9.90387
प्रकार	-9.9057
यसमा	-9.90627
भन्ने	-9.90765
्यो	-9.90808
▁साल	-9.90815
▁व्यक्ति	-9.90887
▁पर्दछ	-9.91006
▁त्यो	-9.91108
▁पूर्व	-9.91138
श्र	-9.91241
\35	-9.91256
घट	-9.9142
\89	-9.91529
उहाँ	-9.91652
\17	-9.91655
▁शब्द	-9.91662
\15	-9.91752
व्यवस्था	-9.91848
▁जो	-9.91967
ामा	-9.92001
▁छु	-9.92085
जस्तो	-9.92179
▁खेल	-9.92206
पहाड	-9.92544
स्थिति	-9.92659
▁नेपालमा	-9.92761
अघि	-9.92836
\26	-9.92941
पुग	-9.92974
▁भारतीय	-9.93568
छन्	-9.93636
\18	-9.93672
▁लग	-9.93815
पक्ष	-9.94035
\70	-9.94071
तर्फ	-9.94111
▁समिति	-9.94174
बनाउन	-9.94222
▁दक्षिण	-9.94278
अर्	-9.94448
जब	-9.94596
राज्य	-9.94613
\36	-9.94834
नयाँ	-9.94872
कुल	-9.94886
त्यहाँ	-9.94946
मूल	-9.95009
\81	-9.95212
विकास	-9.9523
चौ	-9.95282
अध्ययन	-9.95507
पद	-9.95551
्ति	-9.95555
न्छ	-9.95641
कवि	-9.95665
\20	-9.9575
पश्चिम	-9.95831
पर्व	-9.95874
अनि	-9.9592
नगर	-9.95924
▁३	-9.9606
पर्ने	-9.96071
ाव	-9.96104
▁पार	-9.96126
नेपालको	-9.96217
पानी	-9.9631
▁सबैभन्दा	-9.96334
रिया	-9.96358
मैले	-9.9645
जल	-9.96552
वर्ष	-9.96648
शी	-9.96869
कला	-9.96894
पढ	-9.9693
चे	-9.97242
मात्र	-9.97382
सङ्	-9.97397
\16	-9.97553
ाउनु	-9.97853
उक्त	-9.9791
जना	-9.97963
समा	-9.98192
▁सहर	-9.98374
वन	-9.98401
दुई	-9.98469
\73	-9.98499
▁धर्म	-9.98504
राष्ट्र	-9.98592
▁चलचित्र	-9.98636
एका	-9.98661
धि	-9.98665
▁सरकार	-9.98888
ज्ञान	-9.98919
ाइएको	-9.98924
बाहिर	-9.98963
▁महिला	-9.99109
\90	-9.99176
अनुसार	-9.9919
▁यहाँ	-9.99436
▁निर्माण	-9.9949
दर	-9.99562
▁साथ	-9.99582
\40	-9.99599
सभा	-9.99753
\30	-9.99758
यसै	-10.0017
अञ्चल	-10.0034
काली	-10.0057
पृथ्वी	-10.0071
वस्तु	-10.0072
हुन	-10.0082
अभि	-10.0088
▁बेला	-10.0098
अन्य	-10.0113
▁यसको	-10.0137
दान	-10.0138
\50	-10.016
▁ठाउँमा	-10.0165
यसका	-10.0172
क्क	-10.0173
▁महिना	-10.0208
िय	-10.0209
तपाईँको	-10.0215
हात	-10.0221
▁विश्व	-10.0229
प्रभाव	-10.0247
ङ्	-10.0264
लको	-10.0281
सक	-10.0285
▁मे	-10.0286
\80	-10.0295
समय	-10.0307
▁१	-10.0329
▁पछि	-10.0353
ाए	-10.0356
जसको	-10.0362
जानकारी	-10.0365
ुवा	-10.039
शिक्षा	-10.0398
रहे	-10.0408
स्थान	-10.0414
प्रधान	-10.0417
\21	-10.0418
दे	-10.0438
घा	-10.0461
▁सो	-10.0472
निर्वाचन	-10.0472
जस्ता	-10.0472
हुने	-10.0491
तयार	-10.0512
सके	-10.0571
\88	-10.0577
शासन	-10.0586
▁पानी	-10.0608
▁बढी	-10.0611
जित	-10.0618
सम्पादन	-10.0621
दिए	-10.0676
▁समयमा	-10.0681
जिल्ला	-10.0682
जन्म	-10.0683
▁त्यस	-10.0687
अस्ट्रेलिया	-10.0695
जसमा	-10.0718
देवी	-10.0721
िए	-10.0722
पात	-10.0726
▁रहेका	-10.0726
यसले	-10.073
अहिले	-10.0733
पूजा	-10.0735
महा	-10.0751
स्थित	-10.0756
दक्षिण	-10.076
▁सुन	-10.0763
देव	-10.0778
गे	-10.0782
ाइन्छ	-10.0786
समेत	-10.08
▁पर्छ	-10.0801
प्रयोग	-10.0802
▁जोड	-10.0804
मलाई	-10.083
यस्ता	-10.0841
▁गते	-10.0855
भेट	-10.0888
▁देखिन्छ	-10.089
पटक	-10.0901
कुरा	-10.0907
क्ल	-10.0912
सार	-10.0924
बार	-10.0942
▁आए	-10.0943
्रो	-10.0953
लोक	-10.0957
दिल्ली	-10.0966
पार्टी	-10.1005
▁सं	-10.1008
१२	-10.1013
त्व	-10.1016
िस	-10.1042
मान्छे	-10.1045
उनीहरू	-10.1061
उप	-10.1092
चित्र	-10.1093
वै	-10.1095
▁मेरो	-10.1095
कारी	-10.1123
दोस्रो	-10.1163
त्य	-10.1167
माछा	-10.1167
कोट	-10.1171
सङ्घ	-10.118
▁बनाए	-10.1186
हर	-10.1197
सिंह	-10.1243
चन्द्र	-10.1248
नन्	-10.1272
घर	-10.1278
▁विज्ञान	-10.1281
ज्ञ	-10.1282
cfb	-10.1291
अन्त	-10.1329
▁राम्रो	-10.133
संविधान	-10.1364
▁समाज	-10.137
राजा	-10.1379
▁८	-10.1402
उच्च	-10.1414
यदि	-10.1419
बजार	-10.1423
bfc	-10.1442
▁सालमा	-10.1447
▁सेवा	-10.1447
आदि	-10.147
त्रि	-10.1501
छु	-10.1522
सूर्य	-10.1527
▁अर्थ	-10.1532
अङ्ग्रेजी	-10.1538
▁हाल	-10.1543
बी	-10.1549
▁मलाई	-10.155
सिक	-10.1553
त्यसको	-10.1553
dfc	-10.1565
आफ्ना	-10.1569
००	-10.158
ढा	-10.1584
आर्थिक	-10.1652
परि	-10.1657
बे	-10.1665
र्स	-10.169
▁रोग	-10.1713
्त	-10.1714
थि	-10.1717
ुल	-10.1751
योगदान	-10.1779
बाल	-10.1782
उत्तर	-10.1798
परम्परा	-10.1862
जीवन	-10.1865
ज्या	-10.1882
आधार	-10.1883
र्ट	-10.1896
▁स्व	-10.1896
मिल	-10.1913
तपाईँले	-10.1925
थे	-10.1931
फे	-10.1934
गरे	-10.1935
िङ	-10.1954
वास	-10.1954
कर्म	-10.1963
▁काठमाडौँ	-10.1966
भु	-10.198
▁बे	-10.1989
पूर्वी	-10.1991
खेल	-10.1994
▁ग्रह	-10.1995
कार्यक्रम	-10.2001
मुख्य	-10.2008
साथ	-10.2018
मृत्यु	-10.2035
▁राज	-10.2053
ान्त	-10.2058
अब	-10.2058
प्रत्येक	-10.2078
प्राचीन	-10.2078
dfb	-10.2083
निबन्ध	-10.2095
▁जाति	-10.2118
शक्ति	-10.2122
मल	-10.2141
▁विचार	-10.2168
भू	-10.2176
▁उत्तर	-10.2189
अवस्था	-10.2209
प्रसाद	-10.221
मिटर	-10.221
▁गर्‍यो	-10.221
▁पर	-10.2219
bfb	-10.2221
मानव	-10.2233
▁मैले	-10.2241
ाको	-10.2248
cfd	-10.2253
अस्पताल	-10.2254
पहिलो	-10.2265
▁गरियो	-10.2268
शास्त्र	-10.2271
bfd	-10.2274
▁भारत	-10.2295
▁सुरु	-10.2296
अगाडि	-10.2299
विश्वास	-10.2299
▁वर्ग	-10.2311
क्रम	-10.2312
▁५	-10.2318
आएको	-10.2322
ताको	-10.2323
▁स्थापना	-10.2323
प्रदान	-10.2327
अन्तर्राष्ट्रिय	-10.2343
्यु	-10.2378
▁२	-10.2381
▁केन्द्र	-10.2384
गाउँ	-10.2387
पति	-10.2388
ल्या	-10.2394
▁पृष्ठ	-10.2408
उल्लेख	-10.2433
पर्	-10.2462
ाउँछ	-10.2472
११	-10.2474
पाइ	-10.2488
▁पटक	-10.2488
त्यसैले	-10.249
धु	-10.2517
dfd	-10.2526
▁बारेमा	-10.2528
राजनीति	-10.2535
प्रमुख	-10.2548
▁गर्दछन्	-10.2577
फि	-10.2586
जेल	-10.2621
▁राष्ट्रिय	-10.2622
यही	-10.2624
काठमाडौँ	-10.2643
दार	-10.2643
भएका	-10.2656
बन्द	-10.2657
माध्यम	-10.2661
▁प्रकाशित	-10.2662
ल्स	-10.2676
cfc	-10.2688
द्र	-10.2707
पुरस्कार	-10.2708
माओवादी	-10.2708
जसले	-10.2708
तपाईँ	-10.271
ाय	-10.2712
जर	-10.2712
क्या	-10.2715
्‍	-10.2723
हाम्रो	-10.2801
ँदै	-10.2823
बस	-10.2826
▁चार	-10.2828
अरू	-10.2835
जीव	-10.2844
▁सानो	-10.2853
दिनु	-10.2858
▁खान	-10.287
अनेक	-10.2875
▁तपाईँ	-10.2878
राम्रो	-10.2888
स्वतन्त्र	-10.2899
▁वर्षको	-10.2901
▁सेना	-10.2926
▁लिन	-10.2934
योजना	-10.294
लगभग	-10.2943
प्रवेश	-10.2943
यात्रा	-10.2943
बुझ	-10.2959
ट्र	-10.2959
ुहोस्	-10.2962
विभिन्न	-10.2987
▁जनता	-10.3003
क्रिया	-10.3019
▁नगर	-10.3033
प्रतिशत	-10.3038
हुँदा	-10.3038
सर्व	-10.3041
ेन्ट	-10.3052
लिएर	-10.3059
त्यही	-10.3088
सरकार	-10.3092
साल	-10.3097
पन	-10.3109
▁साहित्य	-10.3129
विशेष	-10.3138
भाग	-10.3142
र्न	-10.3145
सक्ने	-10.315
निकै	-10.3155
ेश्वर	-10.3183
सम्बन्धित	-10.3186
▁छोरा	-10.3188
स्तर	-10.3193
्दछ	-10.3212
अन्तर्गत	-10.3232
स्वा	-10.3247
नाथ	-10.3259
▁विश्वविद्यालय	-10.326
अथवा	-10.3281
छोरी	-10.3283
▁पहिले	-10.3297
कलेज	-10.3308
क्याम्पस	-10.333
पुरानो	-10.333
पिता	-10.335
रहेका	-10.3367
हिमाल	-10.34
ताल	-10.3408
▁मानिसहरू	-10.3414
▁भारतको	-10.3414
▁सय	-10.3417
आवश्यक	-10.342
समस्या	-10.3429
bdb	-10.343
▁परिवर्तन	-10.3443
300	-10.3444
यन	-10.3445
अमेरिका	-10.3479
204	-10.348
मुख	-10.3485
▁चिन	-10.349
▁१०	-10.3494
अधिक	-10.3494
▁बोल	-10.3508
▁हामी	-10.3514
१५	-10.3515
करिब	-10.3529
१०	-10.3542
वादी	-10.3547
▁समेत	-10.3595
त्यसै	-10.3603
निर्माण	-10.3603
दिने	-10.3624
▁प्रकाशन	-10.3633
जापान	-10.3641
र्ज	-10.3647
▁मानिस	-10.3651
▁हुँदैन	-10.3664
थियो	-10.3667
▁संस्था	-10.3668
▁आफू	-10.3673
बनेको	-10.3679
विद्यालय	-10.3681
गि	-10.3684
ष्ठ	-10.3697
्वा	-10.3702
विवाह	-10.3702
सँगै	-10.3721
०	-10.3731
प्रयोगकर्ता	-10.3738
रोग	-10.3747
विश्व	-10.3763
र्ड	-10.3779
सामान्य	-10.3785
म्प	-10.3793
लाग्न	-10.3827
पुरुष	-10.3836
खेलाडी	-10.3836
३०	-10.3839
▁होला	-10.3839
▁१८	-10.384
उद्	-10.3848
हित	-10.3873
व्यक्ति	-10.3875
अमेरिकी	-10.3888
▁जस्तै	-10.3896
देवता	-10.3909
५०	-10.3932
981	-10.3933
शिव	-10.3937
▁प्रकारको	-10.3944
खोला	-10.3959
सं	-10.3966
▁परिवार	-10.3966
940	-10.3978
बनाइ	-10.3992
जहाँ	-10.3994
म्ब	-10.3995
▁अञ्चलको	-10.3996
▁साथै	-10.4001
जात	-10.4003
▁खोज	-10.4006
१४	-10.4011
ात्मक	-10.4028
दै	-10.4031
ुन	-10.4034
780	-10.4035
मन्दिर	-10.4037
छि	-10.4038
सफल	-10.405
नेपालमा	-10.4056
जारी	-10.4057
390	-10.4059
▁लामो	-10.4083
जस्तै	-10.4092
राष्ट्रिय	-10.4093
▁हुँदै	-10.4098
जसलाई	-10.41
▁पाए	-10.411
909	-10.4111
धान	-10.4111
289	-10.4117
▁जान	-10.4117
▁ठाउँ	-10.412
भागमा	-10.4125
▁सङ्ख्या	-10.4127
एस	-10.4139
▁भएर	-10.4151
उपलब्ध	-10.4153
▁हुनुहुन्छ	-10.4154
न्स	-10.4167
बन्ध	-10.4185
बहु	-10.4192
420	-10.4193
नदी	-10.4203
बहादुर	-10.4207
शेर्पा	-10.4207
प्रथम	-10.4207
साथै	-10.4209
▁उपत्यका	-10.421
सेवा	-10.4213
▁पाँच	-10.422
770	-10.423
612	-10.4241
हेर्न	-10.4242
स्थानीय	-10.4248
जाने	-10.4251
तल	-10.4255
bdd	-10.4308
750	-10.4311
423	-10.4311
वैज्ञानिक	-10.4315
राजधानी	-10.4315
817	-10.4315
संसार	-10.4323
ाउँदै	-10.4327
450	-10.434
किन	-10.4352
नौ	-10.4354
गुण	-10.4355
१७	-10.4358
830	-10.4378
छोड	-10.438
▁बने	-10.4411
463	-10.4415
ऐतिहासिक	-10.4425
650	-10.4425
▁थाले	-10.4427
206	-10.4438
723	-10.4441
▁सहयोग	-10.4445
त्यसलाई	-10.445
107	-10.4462
कालमा	-10.4471
गाविस	-10.4472
790	-10.4476
▁नक्षत्र	-10.448
कम्पनी	-10.448
597	-10.4481
दश	-10.451
फु	-10.4514
गर्नु	-10.4525
700	-10.453
एवं	-10.4536
रचना	-10.4544
907	-10.4556
960	-10.4564
▁प्रसिद्ध	-10.4565
जति	-10.4574
गाई	-10.4599
धर्म	-10.4607
410	-10.4625
हुनेछ	-10.4626
285	-10.4628
रात	-10.4632
600	-10.4644
▁समूह	-10.4646
नगरपालिका	-10.4648
हल	-10.4667
आत्म	-10.4668
▁शरीर	-10.4687
भन्न	-10.4695
खो	-10.4703
समुदाय	-10.4704
स्वास्थ्य	-10.4704
सञ्चालन	-10.4704
सन्तान	-10.4705
703	-10.4715
800	-10.4724
249	-10.4729
360	-10.4735
935	-10.4741
755	-10.4741
परेको	-10.4755
▁धार्मिक	-10.4759
विधि	-10.4763
ccb	-10.4769
फेरि	-10.4771
▁पुस्तक	-10.4798
590	-10.4811
147	-10.4812
सहित	-10.484
839	-10.4846
431	-10.4848
200	-10.4866
स्थापित	-10.4876
कृष्ण	-10.4876
▁पाइने	-10.4876
विरोध	-10.4876
अस्ट्रेलियाली	-10.4879
729	-10.488
उपयोग	-10.4893
129	-10.4896
कुमार	-10.4903
146	-10.4908
139	-10.4908
447	-10.4909
250	-10.4932
अन्तिम	-10.4933
946	-10.4943
140	-10.4948
bcd	-10.495
वर्ग	-10.4951
585	-10.4957
वाह	-10.4967
कृत	-10.4973
मह	-10.4974
100	-10.4977
596	-10.4982
101	-10.4987
439	-10.4989
संस्कृत	-10.4991
श्रेष्ठ	-10.4992
▁आधारमा	-10.4993
885	-10.4994
्स	-10.4994
▁शाह	-10.5004
635	-10.5011
900	-10.5013
980	-10.5014
विद्	-10.5017
आमा	-10.502
180	-10.5024
523	-10.5025
217	-10.5028
376	-10.5029
पार	-10.5031
375	-10.5035
385	-10.5035
902	-10.504
510	-10.5042
बाहेक	-10.505
छो	-10.5051
यसरी	-10.5054
540	-10.5055
150	-10.5056
639	-10.506
809	-10.5065
987	-10.5077
332	-10.5084
286	-10.5086
dcb	-10.509
580	-10.5093
बर्	-10.5108
व्यापार	-10.5109
निर्देश	-10.5111
745	-10.5112
303	-10.5113
ुक	-10.5117
918	-10.512
930	-10.5125
हरु	-10.5127
990	-10.513
916	-10.5133
545	-10.5134
350	-10.5137
260	-10.5138
685	-10.514
910	-10.5148
युग	-10.5152
620	-10.5155
533	-10.5156
985	-10.516
939	-10.5164
दृष्टि	-10.5168
▁होइन	-10.5168
504	-10.5169
खि	-10.517
▁गर्	-10.5174
▁गर्छन्	-10.5177
449	-10.5182
840	-10.5182
्ती	-10.5185
722	-10.519
906	-10.5196
494	-10.5196
भयो	-10.5198
▁पुगे	-10.5198
904	-10.5202
647	-10.5209
513	-10.5212
143	-10.5214
836	-10.5219
▁आउने	-10.5228
485	-10.5229
657	-10.5229
१८	-10.5239
अलग	-10.524
740	-10.5251
१३	-10.5254
416	-10.5255
बाटो	-10.5257
845	-10.5259
लग	-10.5269
प्रस्तुत	-10.5287
352	-10.5292
▁बसे	-10.5297
913	-10.5298
838	-10.5303
शो	-10.531
चर	-10.5311
ल्ला	-10.5334
828	-10.5342
मार्ग	-10.5342
488	-10.5345
कृषि	-10.5348
आफ्नै	-10.5348
किसिम	-10.5348
512	-10.5348
887	-10.5349
पुत्र	-10.535
319	-10.535
539	-10.5356
550	-10.5359
442	-10.5361
709	-10.5367
999	-10.5369
110	-10.5375
823	-10.5376
346	-10.5379
मेट	-10.5379
682	-10.5381
660	-10.5387
803	-10.539
118	-10.5404
उपन्यास	-10.5408
पोखरी	-10.5408
सम्पूर्ण	-10.5408
मुक्त	-10.5409
सुन्दर	-10.5409
भोज	-10.5417
380	-10.5424
640	-10.5426
थप	-10.5438
702	-10.5446
680	-10.5456
हामी	-10.546
890	-10.546
चलचित्र	-10.5464
कार्यालय	-10.5469
घोषणा	-10.5469
931	-10.547
ञ्ज	-10.5472
संयुक्त	-10.5475
437	-10.5483
966	-10.5483
801	-10.5484
785	-10.5484
119	-10.5484
६०	-10.5487
774	-10.5489
112	-10.549
718	-10.5506
897	-10.5521
616	-10.5523
903	-10.5528
मान्यता	-10.553
ग्रन्थ	-10.5531
417	-10.5532
221	-10.5535
760	-10.5539
280	-10.5543
446	-10.5551
सात	-10.5551
240	-10.5551
सम्बन्धी	-10.5555
सुन	-10.5556
673	-10.5558
489	-10.5558
546	-10.5566
389	-10.5569
757	-10.5572
851	-10.5576
हरूबाट	-10.5579
671	-10.558
413	-10.5587
849	-10.5592
उत्पादन	-10.5592
थुप्रै	-10.5592
▁जान्छ	-10.5596
497	-10.5599
663	-10.5601
404	-10.5606
947	-10.5606
424	-10.561
850	-10.5612
712	-10.5614
697	-10.5615
992	-10.5617
उहाँले	-10.5618
162	-10.5618
▁भनेर	-10.562
901	-10.5621
ेन्द्र	-10.5623
938	-10.5626
222	-10.563
961	-10.5645
सम्मान	-10.5655
408	-10.567
487	-10.5674
448	-10.5675
644	-10.5676
विकि	-10.5679
कालो	-10.5682
483	-10.5683
418	-10.5685
778	-10.5687
574	-10.5694
519	-10.57
वेद	-10.5702
287	-10.5713
426	-10.5716
बसोबास	-10.5717
▁गरिने	-10.5724
विज्ञान	-10.5726
208	-10.5726
498	-10.5727
530	-10.5729
खण्ड	-10.5743
920	-10.5745
629	-10.5748
646	-10.5749
भक्त	-10.5749
953	-10.5753
252	-10.5753
313	-10.5755
430	-10.5759
218	-10.576
522	-10.5761
627	-10.5767
471	-10.5771
115	-10.5776
704	-10.5779
ईश्वर	-10.578
181	-10.5781
340	-10.5783
316	-10.5787
विजय	-10.5794
905	-10.5795
ट्ट	-10.5801
142	-10.5807
335	-10.581
689	-10.5811
950	-10.5812
धारा	-10.5817
638	-10.5817
207	-10.5817
253	-10.5824
लगायत	-10.5824
997	-10.5827
झा	-10.583
698	-10.583
265	-10.583
969	-10.5833
तपाईँलाई	-10.5834
सदरमुकाम	-10.5843
दुवै	-10.5844
210	-10.5845
गढ	-10.5848
ddb	-10.5848
प्राप्त	-10.5855
792	-10.5855
▁थिएन	-10.5855
पूर	-10.5859
888	-10.5859
407	-10.586
307	-10.5861
705	-10.5862
111	-10.5863
320	-10.5864
ौं	-10.5864
730	-10.5864
क्षेत्रमा	-10.5868
753	-10.5873
205	-10.5873
841	-10.5873
दर्शन	-10.5883
▁क्षेत्रको	-10.5885
रेल	-10.5889
160	-10.5892
560	-10.5894
567	-10.5895
989	-10.5901
आधुनिक	-10.5907
वंश	-10.5907
243	-10.5912
679	-10.5915
भाइ	-10.5918
967	-10.592
क्षण	-10.5921
734	-10.5924
च्छ	-10.5925
707	-10.5926
720	-10.593
349	-10.5931
500	-10.5932
648	-10.5935
एम	-10.5935
781	-10.5939
573	-10.5943
209	-10.5955
975	-10.5959
772	-10.5964
रस	-10.5965
120	-10.5966
▁रि	-10.5968
वीर	-10.597
तिब्बत	-10.5971
327	-10.5972
वी	-10.5972
गुरु	-10.5974
दूर	-10.5975
रिस	-10.5976
677	-10.5976
678	-10.5977
642	-10.5979
जिल्लाको	-10.5988
535	-10.5992
492	-10.5997
506	-10.5997
602	-10.6
थ्यो	-10.6001
201	-10.6006
917	-10.6023
728	-10.6028
622	-10.6029
653	-10.6029
149	-10.603
363	-10.6033
ीकरण	-10.6037
402	-10.6045
735	-10.6057
656	-10.6059
509	-10.6065
153	-10.6073
गरेको	-10.6074
481	-10.6074
793	-10.6082
881	-10.6088
486	-10.6089
860	-10.6091
राजनैतिक	-10.61
सुझाव	-10.61
970	-10.6102
भारतमा	-10.6105
532	-10.6105
587	-10.611
719	-10.6113
144	-10.6114
281	-10.6114
128	-10.6118
816	-10.6119
आउन	-10.6121
576	-10.6123
प्या	-10.6125
फैल	-10.6133
336	-10.6133
923	-10.6135
568	-10.6138
241	-10.6138
634	-10.6139
687	-10.6139
699	-10.6144
457	-10.6148
बेला	-10.615
508	-10.615
837	-10.6154
अप	-10.6155
708	-10.6157
२७	-10.6157
हरेक	-10.6161
172	-10.6164
पोखरा	-10.6166
▁थाहा	-10.6166
832	-10.6166
मण्डल	-10.6167
182	-10.6167
216	-10.6169
167	-10.6176
वान	-10.6178
थर	-10.6181
321	-10.6182
381	-10.6186
196	-10.6188
511	-10.6189
247	-10.6191
518	-10.6192
देशमा	-10.6192
304	-10.6193
310	-10.6196
170	-10.6197
म्बा	-10.6198
रहने	-10.6199
▁हेर	-10.6205
422	-10.6206
322	-10.6207
405	-10.6209
400	-10.621
297	-10.6212
135	-10.622
691	-10.6221
787	-10.6221
609	-10.6223
466	-10.6225
655	-10.6229
436	-10.623
नेतृत्व	-10.6231
प्रणाली	-10.6231
527	-10.6232
409	-10.6233
▁लाख	-10.6233
419	-10.6236
517	-10.624
480	-10.6241
882	-10.6243
अन	-10.6243
सन्त	-10.6248
618	-10.6248
592	-10.625
187	-10.6263
लाल	-10.6263
919	-10.6265
462	-10.6265
701	-10.6266
305	-10.6267
219	-10.6268
434	-10.6272
798	-10.6273
270	-10.6281
प्रदेश	-10.6281
791	-10.6286
▁अफ	-10.6287
432	-10.6291
103	-10.6293
453	-10.6296
पदार्थ	-10.6298
246	-10.6309
674	-10.631
763	-10.6315
186	-10.6316
अति	-10.6318
213	-10.6325
122	-10.6328
्थ्यो	-10.6338
733	-10.6339
766	-10.6342
879	-10.6344
676	-10.6348
104	-10.635
818	-10.6354
एन	-10.6358
711	-10.6363
330	-10.6365
765	-10.6367
892	-10.6371
922	-10.6372
साधारण	-10.6372
सुधार	-10.6376
537	-10.6389
411	-10.6397
महिला	-10.6401
परिवार	-10.6401
397	-10.6403
258	-10.641
युक्त	-10.6413
401	-10.6414
743	-10.6423
460	-10.6431
235	-10.6432
इन्द्र	-10.6436
929	-10.6438
257	-10.6446
714	-10.6459
244	-10.6463
298	-10.6469
388	-10.6475
782	-10.6486
529	-10.6497
227	-10.6498
नागरिक	-10.6499
व्रत	-10.6502
628	-10.6502
343	-10.6504
158	-10.6505
362	-10.6505
872	-10.6506
632	-10.6507
797	-10.6511
747	-10.6522
731	-10.6524
157	-10.6538
सहयोग	-10.6542
132	-10.6544
सबैभन्दा	-10.6546
प्रा	-10.6553
507	-10.6557
478	-10.6559
291	-10.6563
831	-10.6565
िन्थ्यो	-10.6565
केवल	-10.6567
865	-10.657
288	-10.6571
737	-10.6573
767	-10.6573
जङ्गल	-10.6576
317	-10.658
ेड	-10.6594
तरिका	-10.6594
771	-10.6602
स्थ	-10.6605
415	-10.6606
050	-10.6611
खास	-10.6611
986	-10.6614
ञ्च	-10.6618
चक	-10.6621
एल	-10.6626
202	-10.6628
721	-10.663
963	-10.6631
915	-10.6633
ुहोला	-10.6637
166	-10.6639
309	-10.6642
403	-10.6642
323	-10.6649
406	-10.6664
467	-10.6667
हरि	-10.6678
756	-10.6688
941	-10.6689
फ्	-10.6691
▁ईसा	-10.6705
465	-10.6724
808	-10.6728
274	-10.6742
347	-10.6745
630	-10.6749
262	-10.6749
276	-10.6753
176	-10.6768
341	-10.677
141	-10.6771
विरुद्ध	-10.6774
आँखा	-10.6774
महत्त्वपूर्ण	-10.6774
886	-10.6789
440	-10.6792
पल्ट	-10.6797
846	-10.6799
636	-10.6806
746	-10.6816
392	-10.6818
773	-10.682
835	-10.6824
370	-10.6826
▁पृष्ठमा	-10.6826
सकेको	-10.6831
पृष्ठ	-10.6831
806	-10.6831
भारतीय	-10.6832
▁बढ्	-10.6834
383	-10.6837
197	-10.6841
वनस्पति	-10.6844
819	-10.6844
भई	-10.685
863	-10.6863
215	-10.6864
यन्त्र	-10.6875
113	-10.6882
796	-10.6884
315	-10.6892
378	-10.6924
914	-10.6925
706	-10.6926
ध्यान	-10.6928
पाठ	-10.693
चित	-10.6931
उस	-10.6936
314	-10.6941
607	-10.6945
312	-10.6954
नर	-10.6955
896	-10.6956
758	-10.6956
696	-10.6957
777	-10.6964
▁गए	-10.697
117	-10.6978
741	-10.6979
159	-10.6979
स्व	-10.6987
983	-10.6995
घाट	-10.6998
503	-10.7013
192	-10.7023
यहाँको	-10.7024
844	-10.7036
उपत्यका	-10.7053
बौद्ध	-10.7057
अर्थात्	-10.7057
राणा	-10.7057
कहिले	-10.7057
190	-10.7058
531	-10.7061
536	-10.7085
बाजा	-10.7093
▁लागे	-10.7097
▁भाषामा	-10.7097
उसको	-10.7098
२५	-10.7114
165	-10.7119
853	-10.7121
तन्त्र	-10.7123
179	-10.7127
पर्यटक	-10.7129
▁लाग्छ	-10.7129
प्रयास	-10.7129
883	-10.7129
स्कुल	-10.7136
302	-10.7144
185	-10.7144
्दछन्	-10.7151
736	-10.7154
ेपछि	-10.7179
188	-10.7182
670	-10.7183
762	-10.7191
टार	-10.7198
858	-10.72
आदिवासी	-10.7201
अवसर	-10.7201
भारत	-10.7215
ट्टा	-10.7241
राजनीतिक	-10.7262
पुरा	-10.7267
501	-10.7268
▁फर्क	-10.7277
िलो	-10.7277
प्रो	-10.7278
804	-10.7298
631	-10.73
926	-10.731
प्रेम	-10.7328
वाद	-10.7329
२३	-10.7336
मौ	-10.7339
सिद्ध	-10.7346
एउटै	-10.7348
नीति	-10.7352
▁भएपछि	-10.7357
065	-10.7364
उपचार	-10.7366
्च	-10.7377
विभाग	-10.7386
आठ	-10.7394
373	-10.7398
ँदा	-10.7402
गर्दा	-10.7402
विद्यार्थी	-10.7422
किराँत	-10.7422
किलोमिटर	-10.7422
आफू	-10.7435
कति	-10.7441
निया	-10.7469
283	-10.7473
्दैन	-10.7489
अधिकांश	-10.7496
तत्कालीन	-10.7496
सिद्धान्त	-10.7497
301	-10.7499
ाउँछन्	-10.7505
130	-10.7541
601	-10.7551
▁लिए	-10.7557
्‍य	-10.7563
अभियान	-10.7572
शर्मा	-10.7572
्थे	-10.7581
भै	-10.7594
लगायतका	-10.7594
▁नभए	-10.7595
ल्ट	-10.7612
बढी	-10.7614
गोल	-10.7614
263	-10.7627
सित	-10.7645
कर्णाली	-10.7647
काङ्ग्रेस	-10.7647
धन्यवाद	-10.7647
फिल्म	-10.7647
अत्यन्त	-10.7647
प्रमाण	-10.7648
टाढा	-10.7649
२००७	-10.7651
फरक	-10.7664
637	-10.767
निज	-10.7675
जग	-10.7692
लामो	-10.7693
807	-10.7714
शताब्दी	-10.7724
प्राकृतिक	-10.7724
समर्थन	-10.7724
दशक	-10.7737
उहाँको	-10.7739
सुरू	-10.7756
होस्	-10.7757
सरकारले	-10.7761
सेना	-10.7778
सन्देश	-10.7786
सुरु	-10.7794
सूची	-10.7801
किनभने	-10.7802
220	-10.7817
226	-10.785
भवन	-10.7862
इस्लाम	-10.7878
सैनिक	-10.7878
गोरखा	-10.7878
डाँडा	-10.7878
तत्त्व	-10.7878
चुनाव	-10.7879
राष्ट्रपति	-10.7879
१६	-10.7895
स्थापना	-10.7913
केन्द्रीय	-10.7917
ाएका	-10.7929
चुन	-10.7948
धारण	-10.795
महाभारत	-10.7951
अन्तरिक्ष	-10.7956
तेस्रो	-10.7956
शान्ति	-10.7956
खाने	-10.7981
पुल	-10.7987
सङ्ख्या	-10.7993
प्रसिद्ध	-10.7996
353	-10.7997
प्रारम्भ	-10.8035
सार्वजनिक	-10.8035
सडक	-10.8036
वर्ण	-10.8037
समान	-10.804
घुम	-10.8042
जाति	-10.8059
यति	-10.8066
त्यसमा	-10.8113
पौ	-10.8119
तिमी	-10.812
स्टे	-10.8165
गरेर	-10.8178
परा	-10.8188
निर्णय	-10.8194
पश्चिमाञ्चल	-10.8194
सम्झ	-10.8195
▁भूभाग	-10.8197
▁क्रममा	-10.8197
▁खोल	-10.8223
हुनाले	-10.8225
केन्द्र	-10.8235
ाइट	-10.8236
यिनीहरू	-10.8241
605	-10.8271
नारायण	-10.8274
गठन	-10.8275
समुद्र	-10.8275
सूचना	-10.8275
निम्न	-10.8287
आवश्यकता	-10.8289
गर्दै	-10.8308
पहिले	-10.833
सत्य	-10.8345
अध्यक्ष	-10.8356
ियन	-10.8364
सुविधा	-10.837
२८	-10.8381
भिन्न	-10.8383
मिति	-10.8384
ल्लो	-10.8409
परिवर्तन	-10.8415
पशु	-10.8438
गराउन	-10.8455
बाबु	-10.8484
पाँच	-10.8501
नुभयो	-10.8504
प्राय	-10.8517
गोकर्ण	-10.8521
▁अवस्थामा	-10.8524
व्या	-10.8528
धार	-10.8549
प्रदर्शन	-10.8552
र्थ	-10.8586
शील	-10.859
ग्राम	-10.8592
चन	-10.8597
सहर	-10.86
उद्देश्य	-10.8604
सम्भव	-10.8604
उदाहरण	-10.8604
दुबै	-10.8604
सुरक्षा	-10.8604
ध्व	-10.8607
प्रभावित	-10.8609
मानिसहरू	-10.8635
झु	-10.8654
२४	-10.8671
समाज	-10.8687
कम्प्युटर	-10.8688
कसरी	-10.8688
त्यस्तै	-10.8689
▁गर्नुभएको	-10.8692
▁नेता	-10.8703
किम	-10.8736
बनाएको	-10.8758
उचाइ	-10.8773
इस	-10.8784
बारेमा	-10.8792
ल्ड	-10.8804
साम	-10.8814
कुमारी	-10.882
९०	-10.8843
वर्तमान	-10.8858
लिखित	-10.8858
वार्ता	-10.8859
त्यति	-10.8863
यिनी	-10.8895
▁नाच	-10.8895
लागेको	-10.8897
सक्रिय	-10.8945
फुल	-10.895
ाउँदा	-10.8961
उन्	-10.8963
शनि	-10.8969
रानी	-10.8974
दुख	-10.8975
४०	-10.9001
च्च	-10.9019
उत्पन्न	-10.9032
सांस्कृतिक	-10.9032
▁थिइन्	-10.9032
जात्रा	-10.9033
गरिएको	-10.9042
७०	-10.9065
लिपि	-10.9093
तब	-10.9116
परशुराम	-10.9119
अर्थ	-10.9143
▁भारतका	-10.9158
विधा	-10.9171
आयोजना	-10.919
वृद्धि	-10.9208
उत्तरी	-10.9209
▁२०१०	-10.921
संस्था	-10.9216
पञ्च	-10.9232
च्या	-10.925
२१	-10.9264
स्वीकार	-10.9267
कसै	-10.9284
नजिक	-10.9295
सामेल	-10.9297
गङ्गा	-10.9298
तीर्थ	-10.9299
शासक	-10.9301
साहित्यकार	-10.9337
▁उठ	-10.9352
▁गएको	-10.9353
भारतको	-10.9359
सङ्घर्ष	-10.9387
सम्पन्न	-10.9387
▁संस्कृति	-10.9388
▁प्रकारका	-10.939
जातिको	-10.9413
अनुसन्धान	-10.9478
दृश्य	-10.9478
चर्चित	-10.9478
सगरमाथा	-10.957
चर्चा	-10.957
हत्या	-10.9571
तिनीहरू	-10.9571
कसैले	-10.9584
बदल	-10.9621
थिए	-10.9634
राख्न	-10.964
ऊ	-10.9662
मनुष्य	-10.9662
अभिनय	-10.9662
दरबार	-10.9664
रङ	-10.9675
घो	-10.9676
भूत	-10.9683
चाल	-10.9695
▁देखे	-10.9705
बलि	-10.9709
प्रेस	-10.9716
गरेपछि	-10.972
हुँदै	-10.9751
अनुरोध	-10.9756
ुपर्छ	-10.976
वर्णन	-10.9772
हुनु	-10.9803
प्रान्त	-10.9803
अफ्रिका	-10.985
विशाल	-10.985
हजार	-10.9867
▁गराए	-10.987
हरा	-10.9891
कायम	-10.9902
प्रतियोगिता	-10.9945
प्रचलित	-10.9945
▁तारा	-10.9951
▁लेखक	-11.0008
सम्पर्क	-11.0042
क्षमता	-11.0042
▁आउँछ	-11.0042
शुभ	-11.0043
गृह	-11.0043
▁बनाउने	-11.0044
पुराण	-11.0045
भोग	-11.0049
अमर	-11.0073
जोड	-11.0115
ऋषि	-11.0139
रेडियो	-11.0139
हिन्दू	-11.0139
आक्रमण	-11.0139
एसिया	-11.014
्री	-11.0143
पूर्वमा	-11.0194
शब्द	-11.0196
▁दिइ	-11.0218
मन्त्र	-11.0236
कुकुर	-11.0237
सन्धि	-11.0253
ार्थ	-11.0301
बेलायत	-11.0327
एवम्	-11.0336
आकाश	-11.0337
भेद	-11.0337
मैदान	-11.0338
जनगणना	-11.0341
मेला	-11.0344
मुनि	-11.0352
बुद्ध	-11.0356
साहित्य	-11.0402
न्याय	-11.0406
ऊर्जा	-11.0436
भौतिक	-11.0436
संरक्षण	-11.0436
चाहिँ	-11.0436
नम्बर	-11.0436
अन्ना	-11.0437
महल	-11.0438
हरूसँग	-11.0456
उसले	-11.0456
हावा	-11.0474
ट्या	-11.0492
चरण	-11.0501
बारे	-11.0525
ल्याउन	-11.0532
उमेर	-11.0536
कृपया	-11.0537
विस्तार	-11.0537
स्पष्ट	-11.0537
बराबर	-11.0537
मल्ल	-11.0537
छेउ	-11.0538
भइसके	-11.0538
खगोल	-11.0552
जनता	-11.0557
लगाउने	-11.0586
न्यु	-11.0594
व्यवहार	-11.0639
मन्त्रालय	-11.0639
विष्णु	-11.0639
सहायता	-11.0639
यिनको	-11.0639
▁शैली	-11.0642
बीच	-11.0645
सक्नु	-11.0681
िएर	-11.0698
ऐ	-11.0742
निरन्तर	-11.0742
निश्चित	-11.0742
नियन्त्रण	-11.0742
▁गर्नुहोला	-11.0745
योग्य	-11.0749
भरि	-11.0769
▁परे	-11.0784
प्रक्रिया	-11.0784
एफ	-11.079
च्याउ	-11.0791
तराई	-11.0795
किरण	-11.0817
मुद्दा	-11.0846
कतिपय	-11.0846
जनकपुर	-11.0846
पटना	-11.0846
अझै	-11.0849
नेवार	-11.0855
अभिनेता	-11.0858
छोरा	-11.0947
लोकप्रिय	-11.0951
अग्लो	-11.0951
राहु	-11.0965
३२	-11.1007
पुग्न	-11.101
▁रोक	-11.1047
ललितपुर	-11.1058
प्रत्यक्ष	-11.1058
फ्रान्स	-11.1058
▁रह्यो	-11.1058
विकसित	-11.1058
पहिला	-11.1058
युरोप	-11.1058
सानो	-11.1059
खोज	-11.1062
सतह	-11.1066
ियर	-11.1088
जेठ	-11.1113
२६	-11.116
सामग्री	-11.1165
गण्डकी	-11.1165
क्रान्ति	-11.1165
बच्चन	-11.1165
सुरुवात	-11.1166
सत्ता	-11.1173
४७	-11.1191
साथीहरू	-11.1201
प्रविधि	-11.1217
छाप	-11.1238
▁राखे	-11.1239
चुर	-11.1258
लम्ब	-11.1271
सुरक्षित	-11.1274
अफगानिस्तान	-11.1274
मातृ	-11.1274
जम्मा	-11.1275
सागर	-11.1275
जातीय	-11.1277
समूह	-11.1277
धार्मिक	-11.1277
सचिव	-11.1295
हामीले	-11.1329
▁लगाए	-11.1335
हिंसा	-11.1335
त्ति	-11.1354
भनिए	-11.136
सकिने	-11.1386
फ्र	-11.1391
रेखा	-11.1401
ँदैन	-11.1423
मानिस	-11.145
क्षेत्रफल	-11.1451
गणेश	-11.1495
ब्राह्मण	-11.1495
विभाजन	-11.1495
कास्की	-11.1495
बच्चा	-11.1495
नजिकै	-11.15
ब्रा	-11.1506
मृत	-11.1506
राख्ने	-11.1512
तर्फबाट	-11.1512
महादेव	-11.153
२२	-11.1533
८०	-11.1559
स्वी	-11.1585
ठूलो	-11.1607
पवित्र	-11.1607
बद्ध	-11.1608
मात्रा	-11.1625
रुचि	-11.1643
विमान	-11.167
वातावरण	-11.1721
सधैँ	-11.1721
कतै	-11.1721
दर्ता	-11.1721
पृथ्वीनारायण	-11.1722
भक्तपुर	-11.1723
अन्त्य	-11.1726
आधा	-11.1737
▁सक्	-11.1749
िनु	-11.1768
ल्याए	-11.1828
ढुङ्गा	-11.1836
अप्रिल	-11.1836
डिग्री	-11.1836
धनुष	-11.1836
▁लाग्यो	-11.1836
मार्च	-11.1836
ज्योतिष	-11.1837
कक्षा	-11.1837
कलाकार	-11.1841
ाधिकार	-11.1843
साझा	-11.1872
सफलता	-11.1878
्नुपर्ने	-11.1917
सही	-11.1938
टेलिभिजन	-11.1952
जर्मन	-11.1952
▁गरिदिए	-11.1955
▁काठ	-11.1961
बाँच	-11.1964
शरीर	-11.1988
खेर	-11.2009
गएर	-11.2034
सम्भावना	-11.207
सूत्र	-11.207
आचार्य	-11.207
हिन्दी	-11.207
खर्च	-11.2071
शिक्षण	-11.2071
मगर	-11.2071
परम्परागत	-11.2072
बिहान	-11.2072
पुस्तक	-11.2111
३६	-11.2123
सन्दर्भ	-11.2189
चिकित्सा	-11.2189
दैनिक	-11.2189
तुलना	-11.2189
श्रेणी	-11.2189
किताब	-11.2189
सोच	-11.2189
▁पर्‍यो	-11.219
▁जुलाई	-11.2192
स्रोत	-11.2194
बेल	-11.2215
प्रजाति	-11.2225
▁दिन्छ	-11.223
प्रख्यात	-11.2309
ठुलो	-11.2309
झापा	-11.2312
राखेर	-11.2313
बेलायती	-11.2321
बस्ती	-11.2324
त्मक	-11.2349
२९	-11.2405
कल्प	-11.2427
शीर्ष	-11.2431
ऋ	-11.2431
नियमित	-11.2431
प्रस्ताव	-11.2431
दुर्गा	-11.2431
सङ्गठन	-11.2432
पछिल्लो	-11.2442
विवाद	-11.2462
लेखनाथ	-11.2472
४९	-11.2536
सुख	-11.2553
महत्त्व	-11.2554
भविष्य	-11.2555
चौतारी	-11.2555
पर्याप्त	-11.2555
यातायात	-11.2555
तथ्य	-11.2555
शुद्ध	-11.2556
पुराना	-11.2563
भनी	-11.2568
अझ	-11.2583
▁देखा	-11.2616
जनसङ्ख्या	-11.2623
उपाय	-11.2632
▁चाहन्	-11.2676
रहनु	-11.2676
त्याग	-11.2677
पाल्पा	-11.268
अतिरिक्त	-11.268
यिनले	-11.268
मित्र	-11.2689
उपयुक्त	-11.2695
नियुक्त	-11.2708
घिमिरे	-11.2806
मुसलमान	-11.2806
स्नातक	-11.2806
▁सक्दैन	-11.2806
पुर्‍याउन	-11.2807
छाला	-11.2808
कमजोर	-11.2808
राजमार्ग	-11.282
युवा	-11.2834
ेयर	-11.2842
मूल्य	-11.287
म्बु	-11.2911
▁निस्क	-11.2937
चाहे	-11.2939
कल्पना	-11.294
संरचना	-11.2946
केरल	-11.2947
खेती	-11.2952
तल्लो	-11.2971
विविध	-11.298
आई	-11.2987
अहिंसा	-11.2992
५५	-11.2993
लाइन	-11.3036
बक्स	-11.3049
गोर्खा	-11.3064
बागमती	-11.3064
विशिष्ट	-11.3064
▁करोड	-11.3064
संसद	-11.3067
गोपाल	-11.307
जीवित	-11.307
अहिलेसम्म	-11.3072
दोष	-11.3072
निष्	-11.3088
बिहार	-11.3108
अवस्थित	-11.3159
भ्रमण	-11.3196
▁पुग्यो	-11.3196
कपडा	-11.3196
खनाल	-11.3197
दैलेख	-11.3198
गुरू	-11.32
मङ्गल	-11.3201
६९	-11.321
न्द्र	-11.3228
४८	-11.3239
वार्षिक	-11.3329
प्राणी	-11.3329
सजिलो	-11.3329
दिवस	-11.3329
▁आधारित	-11.333
पाण्डे	-11.333
सर्वप्रथम	-11.333
▁गर्थे	-11.3331
▁गर्नुभयो	-11.3331
▁गर्नुपर्छ	-11.3332
पिण्ड	-11.3335
उचित	-11.3368
३१	-11.3373
▁जनजाति	-11.3405
छाड	-11.3412
एकदम	-11.3412
चैत	-11.3415
अक्टोबर	-11.3464
वास्तविक	-11.3464
व्याख्या	-11.3464
सञ्चार	-11.3464
स्थायी	-11.3464
पत्नी	-11.3464
डन्डी	-11.3465
विदेशी	-11.3465
गणित	-11.3465
चितवन	-11.3465
▁पश्चिममा	-11.347
▁मात्रामा	-11.347
गर्मी	-11.3486
्टर	-11.3504
भोट	-11.353
५८	-11.3547
कर्ता	-11.3581
आरम्भ	-11.3601
पुष्प	-11.3601
ः	-11.3601
नोभेम्बर	-11.3601
सम्मेलन	-11.3601
कर्मचारी	-11.3601
परमाणु	-11.3601
पाकिस्तान	-11.3601
व्यापक	-11.3601
विवरण	-11.3601
निम्ति	-11.3602
▁बनाइन्छ	-11.3602
स्नान	-11.3603
जानु	-11.3627
▁रहेछ	-11.3649
मिश्र	-11.3652
हटाउन	-11.3653
स्त्री	-11.3689
किरात	-11.3722
व्यक्त	-11.3729
सङ्कलन	-11.374
फुटबल	-11.374
भौगोलिक	-11.374
इच्छा	-11.374
जनवरी	-11.374
▁दिइन्छ	-11.3741
दिइएको	-11.3759
वैशाख	-11.3881
लक्ष्य	-11.3881
▁नाटक	-11.3881
उपनिवेश	-11.3881
शङ्कर	-11.3881
पञ्चायत	-11.3881
तामाङ	-11.3881
▁बन्यो	-11.3881
शैल	-11.3889
भोक	-11.3923
विक्रम	-11.3926
▁१००	-11.3928
एक्स	-11.397
५२	-11.3976
प्युठान	-11.4024
व्यवसाय	-11.4024
अत्याधिक	-11.4024
अस्तित्व	-11.4024
औपचारिक	-11.4024
जग्गा	-11.4024
विद्युत	-11.4024
अनुभव	-11.4024
आरोप	-11.4024
▁सेतो	-11.4024
महेन्द्र	-11.4025
व्यवस्थापन	-11.4026
खाद्य	-11.4027
अल्	-11.4061
लेखेको	-11.4105
प्रचलन	-11.4169
सहभागी	-11.4169
▁गौतम	-11.4169
फिर्ता	-11.4169
संलग्न	-11.4169
संस्कार	-11.4169
सिर्जना	-11.4169
बाँकी	-11.4169
पूर्णिमा	-11.4169
प्रहरी	-11.4169
▁उमेरमा	-11.4171
▁पात्र	-11.418
प्रतिबन्ध	-11.4188
हेर्दा	-11.4189
सल्लाह	-11.4311
आफैँ	-11.4316
डिसेम्बर	-11.4316
श्रृङ्खला	-11.4316
गान्धी	-11.4316
पौडेल	-11.4316
सिन्धुली	-11.4316
नेकपा	-11.4316
भण्डार	-11.4316
▁इलाम	-11.4316
गुठी	-11.4316
पछाडि	-11.4316
▁गुरुङ	-11.4316
वृत्त	-11.4316
समाप्त	-11.4317
ाचार्य	-11.4318
परेका	-11.4325
मुस्लिम	-11.4465
राम्ररी	-11.4465
रेकर्ड	-11.4465
सिक्किम	-11.4465
▁भन्दछन्	-11.4465
भवानी	-11.4465
मेची	-11.4465
आवाज	-11.4466
▁अवधिमा	-11.4467
समाचार	-11.4468
▁जिते	-11.456
▁टिम	-11.4564
▁दशमलव	-11.4617
अपराध	-11.4617
भोलि	-11.4617
बिरुवा	-11.4617
राखेको	-11.4721
औषधि	-11.4771
पुस्तकालय	-11.4771
लगातार	-11.4771
सेप्टेम्बर	-11.4771
त्रिभुवन	-11.4771
वुड्स	-11.4771
सभ्यता	-11.4771
काभ्रे	-11.4771
उपकरण	-11.4771
मार्फत	-11.4771
▁बाँध	-11.4771
किनारा	-11.4771
फूल	-11.4772
दूत	-11.4772
पाटन	-11.4773
२००८	-11.4776
नगरकोट	-11.4785
महिना	-11.4804
६२	-11.4878
यस्तै	-11.4926
पहिचान	-11.4927
नमस्कार	-11.4927
पूर्वाञ्चल	-11.4927
प्राथमिक	-11.4927
वृक्ष	-11.4927
▁मध्यमाञ्चल	-11.4927
एकादशी	-11.4927
पोषण	-11.4927
प्रतिष्ठान	-11.4927
लक्ष्मी	-11.4927
शिक्षक	-11.4927
साउथ	-11.4927
हजुर	-11.4927
पत्ता	-11.4927
आश्रम	-11.4927
समस्त	-11.4931
गहन	-11.4966
द्रोह	-11.4976
चेतन	-11.5019
सर्वाधिक	-11.5079
अवधि	-11.5084
ग्रामीण	-11.5086
अभिनेत्री	-11.5086
मद्दत	-11.5086
मौलिक	-11.5086
ढोका	-11.5086
जहाज	-11.5086
▁जनावर	-11.5086
▁उपन्यासकार	-11.5086
छात्र	-11.5086
ुपर्दछ	-11.5086
▁बताए	-11.5086
▁मुक्ति	-11.5089
मिलियन	-11.51
अमेरिकन	-11.5247
धादिङ	-11.5247
लुम्बिनी	-11.5247
हासिल	-11.5247
कल्याण	-11.5247
परीक्षण	-11.5247
प्रगति	-11.5247
▁थापा	-11.5248
गलत	-11.5248
अनुवाद	-11.5249
व्यक्तिगत	-11.5297
म्यान	-11.5314
बराल	-11.5395
खोटाङ	-11.5411
बङ्गाल	-11.5411
सशस्त्र	-11.5411
समावेश	-11.5411
प्रशासनिक	-11.5411
फाँट	-11.5411
र्‍यो	-11.5411
▁कहिल्यै	-11.5412
मदन	-11.5412
ल्यान्ड	-11.5413
रत्न	-11.5415
संगीत	-11.5447
कोइराला	-11.5577
परीक्षा	-11.5577
ब्रह्म	-11.5577
वरिपरि	-11.5577
उत्पत्ति	-11.5577
किनारमा	-11.5577
हिसाब	-11.5577
रुकुम	-11.5578
▁राखिन्छ	-11.5578
त्यतिबेला	-11.5578
▁हुनुपर्छ	-11.5579
डलर	-11.5581
विश्वविद्यालय	-11.5652
उँदछ	-11.574
इलाहाबाद	-11.5747
थोरै	-11.5747
निर्वाचित	-11.5747
मोबाइल	-11.5747
सजिलै	-11.5747
▁हुनुहुन्थ्यो	-11.5747
पनौती	-11.5747
शमशेर	-11.5747
उपाधि	-11.5747
बसोवास	-11.5747
राजेश	-11.5747
गायक	-11.5747
▁जाँदा	-11.5747
मौसम	-11.5748
कार्यकर्ता	-11.5759
गर्भ	-11.5884
क्रियाकलाप	-11.5919
शालिग्राम	-11.5919
घोषित	-11.5919
मोर्चा	-11.5919
▁थाल्यो	-11.5919
प्रजातन्त्र	-11.5919
साम्राज्य	-11.5919
गल्ती	-11.5919
टाउको	-11.592
सहायक	-11.592
छिमेक	-11.592
निर्धारण	-11.5921
उत्स	-11.5938
जसका	-11.5946
▁पढे	-11.6001
खेत	-11.6058
गणना	-11.6086
पूजाआजा	-11.6095
गम्भीर	-11.6095
तनहुँ	-11.6095
ठोक	-11.6188
बालबालिका	-11.6273
वार्तालाप	-11.6273
अमिताभ	-11.6273
रोजगार	-11.6273
अनुमति	-11.6273
पुनर्	-11.6273
भुटान	-11.6274
जटिल	-11.6274
नायक	-11.6274
चौथो	-11.6455
मुलुक	-11.6455
▁मिनेट	-11.6455
पट्टि	-11.6455
तालिम	-11.6455
किसान	-11.6456
छैन	-11.6581
नेताहरू	-11.6599
दुर्घटना	-11.664
बासिन्दा	-11.664
शुक्र	-11.664
निवासी	-11.6641
प्रश्न	-11.6641
आँप	-11.6641
▁बन्ने	-11.6641
अग्र	-11.669
चल्ने	-11.6812
शेष	-11.6826
धनकुटा	-11.6829
निर्मित	-11.6829
औसत	-11.6829
पत्थर	-11.6829
▁क्लब	-11.683
कन्या	-11.683
कार्यरत	-11.683
बचाउन	-11.6884
केशर	-11.6955
ेक्ट	-11.6976
रमाइलो	-11.7021
▁कठिन	-11.7021
अदालत	-11.7021
कब्जा	-11.7021
स्वयं	-11.7021
पण्डित	-11.7021
लगानी	-11.7021
रक्त	-11.7022
इस्मा	-11.7023
उत्तम	-11.7026
बाँड	-11.7038
ढाँचा	-11.7217
रोल्पा	-11.7217
जुम्ला	-11.7217
टोकियो	-11.7217
सम्पत्ति	-11.7217
अनिवार्य	-11.7217
परिषद्	-11.7217
प्रजातान्त्रिक	-11.7217
सामान्यतया	-11.7217
सैन्य	-11.7217
यादव	-11.7217
सम्पादक	-11.7217
भगवती	-11.7217
फागुन	-11.7218
बाह्र	-11.7219
सायद	-11.7232
चलाउन	-11.7376
अपेक्षा	-11.7417
गुल्मी	-11.7417
सङ्केत	-11.7417
ज्यू	-11.7417
ठेगाना	-11.7417
तापक्रम	-11.7417
ठाकुर	-11.7417
मुगल	-11.7417
बाध्य	-11.7418
▁निकाय	-11.7418
छलफल	-11.7418
फाइल	-11.7418
सपना	-11.742
छाना	-11.7422
आदर्श	-11.7622
इन्टरनेट	-11.7622
जीवाणु	-11.7622
तथ्याङ्क	-11.7622
नामाकरण	-11.7622
पुनः	-11.7622
शैक्षिक	-11.7622
सुर्खेत	-11.7622
हस्ताक्षर	-11.7622
इत्यादि	-11.7622
गहुँ	-11.7622
स्वयम्	-11.7622
आयोजित	-11.7622
वितरण	-11.7622
लघु	-11.7622
अंश	-11.7622
हप्ता	-11.7622
अछाम	-11.783
अपलोड	-11.783
आकर्षक	-11.783
उत्परिवर्तन	-11.783
कम्युनिस्ट	-11.783
ज्वरो	-11.783
न्यून	-11.783
पश्चात	-11.783
बैंक	-11.783
भइरहेको	-11.783
असोज	-11.783
▁जमिन	-11.783
सहज	-11.7831
किशोर	-11.7832
प्रकट	-11.7832
मोहन	-11.7834
चाँडै	-11.8043
डाक्टर	-11.8043
रूपैयाँ	-11.8043
सञ्चालित	-11.8043
ब्यारिमोर	-11.8043
युनियन	-11.8043
तसर्थ	-11.8043
सृजना	-11.8043
हेक्टर	-11.8043
जवाफ	-11.8043
पुण्य	-11.8043
भदौ	-11.8043
कहाँ	-11.8043
क्रिस्	-11.8044
ज्ञात	-11.8046
प्रसङ्ग	-11.8046
छाया	-11.8132
दुःख	-11.826
बिस्तारै	-11.826
युकेश	-11.826
सर्वोच्च	-11.826
द्वीप	-11.826
पीडित	-11.826
लडाईँ	-11.826
हतियार	-11.826
दृष्टिकोण	-11.826
प्रशस्त	-11.826
श्रोत	-11.8262
▁अरब	-11.8268
भनाइ	-11.8319
बताउन	-11.8444
घाँटी	-11.8482
पर्यटन	-11.8482
राप्ती	-11.8482
कार्तिक	-11.8482
दुईटै	-11.8483
बाँस	-11.8484
हाँस	-11.8505
▁प्रतीक	-11.8565
▁भैरव	-11.8693
साप्ताहिक	-11.871
भगवान्	-11.871
सम्बोधन	-11.871
दोलखा	-11.871
‍	-12.0131
़	-12.405
%	-12.6732
?	-13.1177
ञ	-14.3753
ॊ	-14.3876
ॉ	-14.7209
!	-14.721
;	-15.221
ॐ	-15.221
“	-15.221
॰	-16.2208
ॠ	-16.2209
ऱ	-16.221
॑	-16.221
